10011100000011100101111110101010
10011001111101000000000100011100
10011001110101111111000100110000
10011110001110110011110111001100
10011001000011011111110100001101
10011001110100101101111000100000
10010000000111100011001110101100
10011001001000100010010111101110
10011001001001000011011001011111
00010001100110101101111100010001
00000010111111010101001000000010
11111111000101100011010001110010
00000010100111111011101111111111
00010101111000100010111001100001
11110001011100110010111101110011
00000010001000111111111000111111
00010001000101010010000101000000
11110000010001011110010100110010
00001111000011110000000110111010
00000001000011110000000011101001
00000001000011110000000011101010
00011111000000000000000010111101
00000000000000000000111111111111
00000000000100000000111111110001
00010000000000000001000011001110
00000001000100000000000000001111
00010000000100000001000100010001
00100011011111011111000111101100
00100101011100000000010100111110
11110100011101000011011101011111
00010001000000010101011111001110
00010011000011110010001111100000
11110001000000000111001011101111
11110010111101000111010111111101
11110001110100110111111111100000
11110000111001010111000011011111
01110010001100011110000111011100
00100000000001011110001110011010
00010001111100101111001011001100
01000010000101001100000111001111
00100000000001001101001011001110
00010001000101001111111011111110
01001111111101001100111100000000
00101100110000101101111111101101
00101100000011011111110011011101
00110000001111011101110100100010
01010001010000011100000000110100
00001111000100010001000101010100
00010010000100111110110000010000
00010001001001001110110100010010
11011111000000110010001101000001
00011111000000011110000011110000
11110000000001101111000000110000
11011110111100100000110100011101
00111111001111111010000100000011
00011110000001001110000111100100
00001110000011111010111100100001
00000010010100100000001100000000
11110101001100110010011000011111
00000100000000111101001100011110
00000010011101010001001101000000
00000000001100110010001000011110
00010001001100010001010000011110
11110011000100110111001100010000
11100000110000110110000011100011
00010101111000100001111111111110
00000111011100010110000001111110
00000011001011000100000000100101
00100100001100000001110100101110
00100011001100110100011101111111
00001111000111001011110011110100
00000011001000001111111000111111